/**
  ******************************************************************************
  * @file    network2_data.c
  * @author  AST Embedded Analytics Research Platform
  * @date    Fri Sep 24 13:49:31 2021
  * @brief   AI Tool Automatic Code Generator for Embedded NN computing
  ******************************************************************************
  * @attention
  *
  * Copyright (c) 2021 STMicroelectronics.
  * All rights reserved.
  *
  * This software component is licensed by ST under Ultimate Liberty license
  * SLA0044, the "License"; You may not use this file except in compliance with
  * the License. You may obtain a copy of the License at:
  *                             www.st.com/SLA0044
  *
  ******************************************************************************
  */
#include "network2_data.h"
#include "ai_platform_interface.h"


AI_ALIGNED(32)
const ai_u64 s_network2_weights_array_u64[ 633 ] = {
  0xef1e04fa1834U, 0xa0132042f08f200U, 0x44fff30000004628U, 0x100b30d0302da50U,
  0xce9252b441d0c00U, 0xe0cf8000000ea1cU, 0x10e3fb092f0eU, 0xfa2d1bcce0f2f100U,
  0xe2f7f1030000f812U, 0xff5af507cf15f6U, 0x726f0d146020f01U, 0x97081900000022f3U,
  0xc808fbc31329U, 0x250dff630f7e700U, 0xd41017000000e0f6U, 0xb31a0417113dU,
  0xef92e0a070df400U, 0xe603f10000000535U, 0xce4fc0a2f0fU, 0xeee9d2c2dcf4f300U,
  0x2def10000001a04U, 0x3419f4001611U, 0xfb08dee44ee7dd00U, 0xa40111000000c8ddU,
  0x4ef810274efeU, 0x92cf5c9c1060500U, 0xbc06170000004dffU, 0x91e04e7d3e0U,
  0xf70b271c13070c00U, 0xe1f2ee000000dce0U, 0x13313fe3707U, 0x2dfcfe8cf07f600U,
  0x1d090b000000f81aU, 0xb9def9dfe6d1U, 0x5f9d1f2b3f60a00U, 0x180f0f000000e81eU,
  0x10016e7fe073106U, 0xfb172c1dd6f5f400U, 0xe1f7f3000000ede1U, 0x4cdbfbf0e6d7U,
  0xfdf1260f31fb1300U, 0x7ff0eb0000007710U, 0x4901fdd9f7afU, 0xffe5c9f213e70000U,
  0x80a08000000ab19U, 0xe81f04fd1135U, 0x11e183e09f200U, 0xe1f7e5000000d927U,
  0xffffe8a0ffffeaafU, 0xfffff10300001331U, 0xffffe10cffffeabeU, 0x1ca200001148U,
  0x1cceffffe385U, 0xffffe552ffffed84U, 0xfffff4acffffec2bU, 0x19c0ffffd35fU,
  0x1994fffffccdU, 0xffffe96a0000113eU, 0x10c6ffffeab6U, 0x152d000012e0U,
  0xffffed0dffffec9dU, 0xffffe3f300001be8U, 0xe92000002f1U, 0xffffda81ffffec7cU,
  0xdffe050f190a152dU, 0xde06f010152a0307U, 0xf4dceb0e18ddf235U, 0xa31d4e20ee41f05U,
  0x4ed610ddf8eff5f4U, 0x1aeafde6001a3dc6U, 0x2004fafff40f2500U, 0xa0224eedde4f7ecU,
  0x3cf218e7e8f7f2ebU, 0x1be5f2ecee1234cbU, 0x1afafaec04f025fdU, 0xf6fa13e3dcfa0deeU,
  0xfefb3334f81f06f8U, 0xe0a2ff6d6eb0aU, 0xcdfd05f321de0d1dU, 0xfee4c711090e1f36U,
  0xf1fe02d208ef00ecU, 0xbe90fd2fad7e117U, 0x242723fcd24ceacfU, 0xf3fd5022f923b9caU,
  0xc0cf9f7ecfc06fdU, 0xee161ef602e1fceeU, 0x6e408fbd51e1a09U, 0xfefcdd19281fe0fcU,
  0xff5f2c408f310faU, 0xf5fa13c614edf7fcU, 0x36042411af5212eaU, 0x1044526ff0aafd4U,
  0xffa14e1f3f8faddU, 0x11eb03e7faea0afbU, 0x2b2416f9dd320ce8U, 0xf1e74523e711ccfaU,
  0x6e6f52b070711e4U, 0xbd8f227faeaf115U, 0xe21af90022dff220U, 0xecf3e007f0191d20U,
  0xd20a13fd14e61633U, 0xe52708fd190deafaU, 0xffd7fa0cf70e0a0bU, 0x1d1ae8fa2aebf005U,
  0x904ee0dd717ebd8U, 0x28fa070ae3f61c07U, 0xeb1902e62cdbf0ebU, 0xdce60500e30f2d06U,
  0x2c0200fdfdca04f1U, 0x1fc000010ee06eaU, 0x6ff050cea0c2728U, 0xffecf017fe06f208U,
  0x1fefb02e61ceee4U, 0x10fa0601d8ef09fbU, 0xfefffbe10efbf6e3U, 0xeaf4fc01002102fbU,
  0x18eaf81ef2dffadcU, 0x18f31019f0dcf109U, 0xdf22f7f621f30104U, 0xf5dcf50fee13170dU,
  0xd9d100f70df0341cU, 0x9110dcf514f4ee07U, 0xfed9fd0fdd03ff2eU, 0xef25cf1b4c31edf7U,
  0xd5f9f425ed0102e5U, 0xb1ae8faf826U, 0xcd1ff5ee53beb6f6U, 0xfa01f806020e4b02U,
  0x290b12fafb00e1e2U, 0x37d1eefce21220eaU, 0x72aebef21e40202U, 0xf2f31dd6c4fd23f5U,
  0xe20dee2312f70c1fU, 0xe406e81b0d11f216U, 0xd2e1ea1118d3e722U, 0xb22bcfa19f72908U,
  0xf505ef1314150315U, 0xf8f5e812010e0406U, 0xefe8f9040fdfff11U, 0xf30edbe508fd1b0fU,
  0xd803fef21c40033dU, 0xee11f7f413340109U, 0xde2fc0bfef3f0f9U, 0x171efee613e004f6U,
  0xdf0b3212e4eafde2U, 0x51b290eeccde309U, 0xeb130de10f0bfce5U, 0x1e1fc2d1522f923U,
  0x2d01e10ce8d9fed7U, 0xef6030ae8df09e9U, 0xf210fbeb0af5220aU, 0xeedfef0df9180b06U,
  0x1c06ff1ee8ccf8e7U, 0x10fd0419e5f90ef2U, 0xe006e1f024da0e14U, 0xf0eecd02030e2c0fU,
  0x23f1febc00ea0b03U, 0xee0a0fbb1e090df1U, 0x38f10b19b8451ef8U, 0x150e331b05ebbaccU,
  0xf1f80f2605fafafaU, 0xcfaec20efecf103U, 0xd00ae5d545c4f239U, 0xe302aaef11263a05U,
  0xb112ee012a20032cU, 0xf1ead7060c1edf37U, 0xfdf20a0c05edc303U, 0xf62b06dc02f90a0dU,
  0xaffb906fb0a05f8U, 0xfdfafe0905f6001aU, 0x3081703f90bfbfaU, 0x1f4100dfc06f314U,
  0x1611f8f4f781eaf9U, 0x7080ff1040806f7U, 0x7fcef03fb0906efU, 0xe0407fdfeeefbdfU,
  0xde49001611daeafcU, 0x8080c10ffe2db15U, 0xdf11f3031aefeaffU, 0xf5e218121e1405U,
  0xd6c3032d0bf40f1eU, 0xd82608271215ec19U, 0xd4f1e20947c8e20fU, 0x1e1ebcf722e13a0dU,
  0x25030edf12f1131bU, 0xe606f4e3161b1fcaU, 0x14cdfa16df002525U, 0x92ae4ef0eeff7e3U,
  0x300fd12dee5e0ecU, 0x1406020ecf0419f7U, 0xec00e9dc2ad2f8e7U, 0xebf3e0f2021230feU,
  0x260cf6ec07f1b4fbU, 0x2de8f8f011070207U, 0x18130915eb1cffeaU, 0x15e930f9ced4e7faU,
  0xc3faf9d423f30e2cU, 0xe00e0ad51c0ee315U, 0x26f70d0cce43dfe5U, 0x172c300817eebbd1U,
  0xcd02db0002030315U, 0xed1a0d010adfd52cU, 0xffec1d03d72ee9e9U, 0xfdff021c1b09d80aU,
  0xd816fb08fd09f3f9U, 0xa13170c09e4cd4dU, 0x8250d07011dd4dbU, 0xee4302cf0f5ed15U,
  0xe8f0de0a120b061cU, 0xdc13f60f2ae1d52dU, 0x2e42129cf1def00U, 0xafded322f0ed826U,
  0xe901f61e0f14fd15U, 0xfaffef180612f31bU, 0xdefaf60524dde10dU, 0x414d9e705f0250fU,
  0x39e601f5200d04ffU, 0x19cef5fb1d0606f5U, 0x18210e13ed1d2116U, 0xfeb36f3b9dde703U,
  0x4e7f0090f022c1dU, 0xae0ee30b160001f7U, 0xfdc9fe17d9fb1342U, 0xf91ab8012f12f809U,
  0xf3fb15f5fb0d2105U, 0xeafbfef60b0306fdU, 0xcf000feee060311U, 0xff1901070804f0f4U,
  0xd8f8e7df0fb403fcU, 0xf10fde05f4da3fU, 0x1d2c1806eb32cbc2U, 0xdff5025f702d4dbU,
  0x4fdf1200909f10dU, 0x603fa17f907fd02U, 0xc0f6edfa38c4f312U, 0x502bde806f84405U,
  0xb526fe0c0ee80d1aU, 0xdd160207faf3df1cU, 0xebf3faef10f2e0f2U, 0x516e615321f0a05U,
  0xd1fdfe2cf8bf04f9U, 0xf8150c21faeae21aU, 0xce04eaf52fd8e2fbU, 0xaf9d31914112d11U,
  0xe05fc0507faf5f7U, 0x10ebee04f40003fdU, 0xf709f4fc08f4ff06U, 0xf2faf5f2f4020cfaU,
  0xef61dfc06072503U, 0xf4f7fdfe190a03faU, 0x900010f05010c13U, 0x131106fbf4ea02fdU,
  0xda0fe9db0eecdf04U, 0xdf510daf309f805U, 0x211201efe81cddbfU, 0xf5122e03fe04e4ceU,
  0x1a03f72ff4f7f6eaU, 0x9f9fe2600fd08eeU, 0xc4ffdd042bc60629U, 0x5f1b4fffffd3e0dU,
  0x130903fc0af61416U, 0xdd1500fc2f0bffefU, 0xd6fb23e10c203aU, 0x101cd1fe21e5ecfcU,
  0xc8030e0d03e41ff8U, 0xd41b1808fbd2d515U, 0xed0b02f71003edecU, 0xfbfde53c3e44f704U,
  0xfae9f01102e711fbU, 0xef020e0b11f3e812U, 0xe508f71408fef016U, 0x907ed190e010a02U,
  0x1702022d1006fb13U, 0xff06eb2b0a2010e9U, 0xd1eade1233b70e39U, 0xd00b0dc06ec481cU,
  0xc31afe090ced0f15U, 0xe0180b050af9dd21U, 0xf0f0f70307fddf02U, 0x81ae316330b0005U,
  0x26fc01faf50807faU, 0xfb02f5f501021cd0U, 0x4ebf603f4f12a24U, 0xf303defa0e1004ebU,
  0x320402f5fad003e6U, 0x5f3fff609dfffeeU, 0xb0c0b0ada26261aU, 0xf7e60821fe13da01U,
  0x19f912f40d102506U, 0xfa03f8120f09efU, 0xefe030c06021e21U, 0x111207f0efea02fdU,
  0xc20401f8f7f7fdfaU, 0xfc0b10f6eae0e421U, 0x41010ebf61cd2b9U, 0xf0fd1e22141fe3f5U,
  0xecfbe6fc1a2e0125U, 0xfdf3eb000314f01bU, 0x9f40504f505e608U, 0xf71208e0f9f3f905U,
  0x2e05fb07eafee8ecU, 0x1cefe407e50816ebU, 0xf7f5e2f516cf1425U, 0xf6f4d3e7ed0428faU,
  0x7f9f329f6faec05U, 0xe06fc20f90afe07U, 0xbafaeafa3dc5f916U, 0xcfdbce802e7450fU,
  0x800fd24f2e1f4e8U, 0x80e051ef6f302f5U, 0xceffe2f030ca0a18U, 0x1f0c809110f370fU,
  0xc05f903f00cf9f2U, 0xcf5f003daf108f8U, 0xfb0001e6fef605ffU, 0xd8f4eaf1fe270401U,
  0x11ea010bd5c9f2cfU, 0x15151f05dcd1fcffU, 0xec14f5e61cf902eaU, 0xf8e2ef24072b0cffU,
  0x480fffffaabU, 0xfffff95900000494U, 0xefc0000026dU, 0x9ec0000064bU,
  0xfffff873fffffe8bU, 0xfffffec500000a6dU, 0xfffffb94000008fdU, 0xfffff8e9000000f7U,
  0xfffffaf6000001d2U, 0x6e4fffff965U, 0x56cfffffa04U, 0x2d5fffff57bU,
  0xfffffdd5fffffc90U, 0xfffff0f30000079eU, 0xfffff950fffffb9eU, 0xfffff68b000003a6U,
  0x4bffffff77dU, 0xfffff9e90000056bU, 0xfffffacc000003bbU, 0x5c7000009dbU,
  0x19100000a62U, 0xfffff80bfffff96dU, 0xf9bfffff48fU, 0x61b000005e4U,
  0xfffffafffffffce1U, 0xfffffa9dffffffe1U, 0xfffff2efffffff3fU, 0x11b00000b2bU,
  0x3b00000b33U, 0xb70fffffc83U, 0xfffff8d3fffff93eU, 0xfffff8fe000011acU,
  0xf5e7b3ef0ff7f411U, 0x291c1ed130d60d0fU, 0xea34ae15df21401aU, 0x32f0e42b49cf310dU,
  0xe4f815e42cdeee28U, 0xa8f583383312e9f1U, 0x32f0500814e8190dU, 0x1c882515be29def3U,
  0xf5e7b3ef0ff7f411U, 0x291c1ed130d60d0fU, 0xea34ae15df21401aU, 0x32f0e42b49cf310dU,
  0xe4f815e42cdeee28U, 0xa8f583383312e9f1U, 0x32f0500814e8190dU, 0x1c882515be29def3U,
  0xf5e7b3ef0ff7f411U, 0x291c1ed130d60d0fU, 0xea34ae15df21401aU, 0x32f0e42b49cf310dU,
  0xe4f815e42cdeee28U, 0xa8f583383312e9f1U, 0x32f0500814e8190dU, 0x1c882515be29def3U,
  0xf5e7b3ef0ff7f411U, 0x291c1ed130d60d0fU, 0xea34ae15df21401aU, 0x32f0e42b49cf310dU,
  0xe4f815e42cdeee28U, 0xa8f583383312e9f1U, 0x32f0500814e8190dU, 0x1c882515be29def3U,
  0xb1a5113f20a0cefU, 0xd7e4e231d02bf4f2U, 0x16cf54ec23e1c1e7U, 0xce101cd6b833d0f3U,
  0x1d09ec1cd52413daU, 0x620c7fc7cff01810U, 0xce11b2f8ec18eaf3U, 0xe47dddeb45d9230eU,
  0xb1a5113f20a0cefU, 0xd7e4e231d02bf4f2U, 0x16cf54ec23e1c1e7U, 0xce101cd6b833d0f3U,
  0x1d09ec1cd52413daU, 0x620c7fc7cff01810U, 0xce11b2f8ec18eaf3U, 0xe47dddeb45d9230eU,
  0xf5e7b3ef0ff7f411U, 0x291c1ed130d60d0fU, 0xea34ae15df21401aU, 0x32f0e42b49cf310dU,
  0xe4f815e42cdeee28U, 0xa8f583383312e9f1U, 0x32f0500814e8190dU, 0x1c882515be29def3U,
  0xf5e7b3ef0ff7f411U, 0x291c1ed130d60d0fU, 0xea34ae15df21401aU, 0x32f0e42b49cf310dU,
  0xe4f815e42cdeee28U, 0xa8f583383312e9f1U, 0x32f0500814e8190dU, 0x1c882515be29def3U,
  0xf5e7b3ef0ff7f411U, 0x291c1ed130d60d0fU, 0xea34ae15df21401aU, 0x32f0e42b49cf310dU,
  0xe4f815e42cdeee28U, 0xa8f583383312e9f1U, 0x32f0500814e8190dU, 0x1c882515be29def3U,
  0xb1a5113f20a0cefU, 0xd7e4e231d02bf4f2U, 0x16cf54ec23e1c1e7U, 0xce101cd6b833d0f3U,
  0x1d09ec1cd52413daU, 0x620c7fc7cff01810U, 0xce11b2f8ec18eaf3U, 0xe47dddeb45d9230eU,
  0xf5e7b3ef0ff7f411U, 0x291c1ed130d60d0fU, 0xea34ae15df21401aU, 0x32f0e42b49cf310dU,
  0xe4f815e42cdeee28U, 0xa8f583383312e9f1U, 0x32f0500814e8190dU, 0x1c882515be29def3U,
  0xf5e7b3ef0ff7f411U, 0x291c1ed130d60d0fU, 0xea34ae15df21401aU, 0x32f0e42b49cf310dU,
  0xe4f815e42cdeee28U, 0xa8f583383312e9f1U, 0x32f0500814e8190dU, 0x1c882515be29def3U,
  0xb1a5113f20a0cefU, 0xd7e4e231d02bf4f2U, 0x16cf54ec23e1c1e7U, 0xce101cd6b833d0f3U,
  0x1d09ec1cd52413daU, 0x620c7fc7cff01810U, 0xce11b2f8ec18eaf3U, 0xe47dddeb45d9230eU,
  0xb1a5113f20a0cefU, 0xd7e4e231d02bf4f2U, 0x16cf54ec23e1c1e7U, 0xce101cd6b833d0f3U,
  0x1d09ec1cd52413daU, 0x620c7fc7cff01810U, 0xce11b2f8ec18eaf3U, 0xe47dddeb45d9230eU,
  0xb1a5113f20a0cefU, 0xd7e4e231d02bf4f2U, 0x16cf54ec23e1c1e7U, 0xce101cd6b833d0f3U,
  0x1d09ec1cd52413daU, 0x620c7fc7cff01810U, 0xce11b2f8ec18eaf3U, 0xe47dddeb45d9230eU,
  0xb1a5113f20a0cefU, 0xd7e4e231d02bf4f2U, 0x16cf54ec23e1c1e7U, 0xce101cd6b833d0f3U,
  0x1d09ec1cd52413daU, 0x620c7fc7cff01810U, 0xce11b2f8ec18eaf3U, 0xe47dddeb45d9230eU,
  0xf5e7b3ef0ff7f411U, 0x291c1ed130d60d0fU, 0xea34ae15df21401aU, 0x32f0e42b49cf310dU,
  0xe4f815e42cdeee28U, 0xa8f583383312e9f1U, 0x32f0500814e8190dU, 0x1c882515be29def3U,
  0xb1a5113f20a0cefU, 0xd7e4e231d02bf4f2U, 0x16cf54ec23e1c1e7U, 0xce101cd6b833d0f3U,
  0x1d09ec1cd52413daU, 0x620c7fc7cff01810U, 0xce11b2f8ec18eaf3U, 0xe47dddeb45d9230eU,
  0xb1a5113f20a0cefU, 0xd7e4e231d02bf4f2U, 0x16cf54ec23e1c1e7U, 0xce101cd6b833d0f3U,
  0x1d09ec1cd52413daU, 0x620c7fc7cff01810U, 0xce11b2f8ec18eaf3U, 0xe47dddeb45d9230eU,
  0xf5e7b3ef0ff7f411U, 0x291c1ed130d60d0fU, 0xea34ae15df21401aU, 0x32f0e42b49cf310dU,
  0xe4f815e42cdeee28U, 0xa8f583383312e9f1U, 0x32f0500814e8190dU, 0x1c882515be29def3U,
  0xf5e7b3ef0ff7f411U, 0x291c1ed130d60d0fU, 0xea34ae15df21401aU, 0x32f0e42b49cf310dU,
  0xe4f815e42cdeee28U, 0xa8f583383312e9f1U, 0x32f0500814e8190dU, 0x1c882515be29def3U,
  0xf5e7b3ef0ff7f411U, 0x291c1ed130d60d0fU, 0xea34ae15df21401aU, 0x32f0e42b49cf310dU,
  0xe4f815e42cdeee28U, 0xa8f583383312e9f1U, 0x32f0500814e8190dU, 0x1c882515be29def3U,
  0xb1a5113f20a0cefU, 0xd7e4e231d02bf4f2U, 0x16cf54ec23e1c1e7U, 0xce101cd6b833d0f3U,
  0x1d09ec1cd52413daU, 0x620c7fc7cff01810U, 0xce11b2f8ec18eaf3U, 0xe47dddeb45d9230eU,
  0xb1a5113f20a0cefU, 0xd7e4e231d02bf4f2U, 0x16cf54ec23e1c1e7U, 0xce101cd6b833d0f3U,
  0x1d09ec1cd52413daU, 0x620c7fc7cff01810U, 0xce11b2f8ec18eaf3U, 0xe47dddeb45d9230eU,
  0xf5e7b3ef0ff7f411U, 0x291c1ed130d60d0fU, 0xea34ae15df21401aU, 0x32f0e42b49cf310dU,
  0xe4f815e42cdeee28U, 0xa8f583383312e9f1U, 0x32f0500814e8190dU, 0x1c882515be29def3U,
  0xf5e7b3ef0ff7f411U, 0x291c1ed130d60d0fU, 0xea34ae15df21401aU, 0x32f0e42b49cf310dU,
  0xe4f815e42cdeee28U, 0xa8f583383312e9f1U, 0x32f0500814e8190dU, 0x1c882515be29def3U,
  0xb1a5113f20a0cefU, 0xd7e4e231d02bf4f2U, 0x16cf54ec23e1c1e7U, 0xce101cd6b833d0f3U,
  0x1d09ec1cd52413daU, 0x620c7fc7cff01810U, 0xce11b2f8ec18eaf3U, 0xe47dddeb45d9230eU,
  0xb1a5113f20a0cefU, 0xd7e4e231d02bf4f2U, 0x16cf54ec23e1c1e7U, 0xce101cd6b833d0f3U,
  0x1d09ec1cd52413daU, 0x620c7fc7cff01810U, 0xce11b2f8ec18eaf3U, 0xe47dddeb45d9230eU,
  0xf5e7b3ef0ff7f411U, 0x291c1ed130d60d0fU, 0xea34ae15df21401aU, 0x32f0e42b49cf310dU,
  0xe4f815e42cdeee28U, 0xa8f583383312e9f1U, 0x32f0500814e8190dU, 0x1c882515be29def3U,
  0xf5e7b3ef0ff7f411U, 0x291c1ed130d60d0fU, 0xea34ae15df21401aU, 0x32f0e42b49cf310dU,
  0xe4f815e42cdeee28U, 0xa8f583383312e9f1U, 0x32f0500814e8190dU, 0x1c882515be29def3U,
  0xb1a5113f20a0cefU, 0xd7e4e231d02bf4f2U, 0x16cf54ec23e1c1e7U, 0xce101cd6b833d0f3U,
  0x1d09ec1cd52413daU, 0x620c7fc7cff01810U, 0xce11b2f8ec18eaf3U, 0xe47dddeb45d9230eU,
  0xf5e7b3ef0ff7f411U, 0x291c1ed130d60d0fU, 0xea34ae15df21401aU, 0x32f0e42b49cf310dU,
  0xe4f815e42cdeee28U, 0xa8f583383312e9f1U, 0x32f0500814e8190dU, 0x1c882515be29def3U,
  0x6300000063U, 0x6300000063U, 0x8500000085U, 0x6300000063U,
  0x8500000063U, 0x6300000063U, 0x8500000085U, 0x8500000085U,
  0x8500000063U, 0x6300000085U, 0x6300000063U, 0x8500000085U,
  0x6300000063U, 0x8500000085U, 0x6300000063U, 0x6300000085U,
  0x94943e3e94949494U, 0x3e3e3e3e94943e94U, 0x3e3e9494943e3e94U, 0x943e94943e3e9494U,
  0x3333818133333333U, 0x8181818133338133U, 0x8181333333818133U, 0x3381333381813333U,
  0xffffd110ffffed32U,
};



AI_API_DECLARE_BEGIN

/*!
 * @brief Get network weights array pointer as a handle ptr.
 * @ingroup network2_data
 * @return a ai_handle pointer to the weights array
 */
AI_DEPRECATED
AI_API_ENTRY
ai_handle ai_network2_data_weights_get(void)
{
  static const ai_u8* const s_network2_weights_map[1 + 2] = {
    AI_PTR(AI_MAGIC_MARKER),
    AI_PTR(s_network2_weights_array_u64),
    AI_PTR(AI_MAGIC_MARKER)
  };

  return AI_HANDLE_PTR(s_network2_weights_map);

}


/*!
 * @brief Get network params configuration data structure.
 * @ingroup network2_data
 * @return true if a valid configuration is present, false otherwise
 */
AI_API_ENTRY
ai_bool ai_network2_data_params_get(ai_handle network, ai_network_params* params)
{
  if (!(network && params)) return false;
  
  static ai_buffer s_network2_data_map_activations[AI_NETWORK2_DATA_ACTIVATIONS_COUNT] = {
    AI_BUFFER_OBJ_INIT(AI_BUFFER_FORMAT_U8, 1, 1, AI_NETWORK2_DATA_ACTIVATIONS_SIZE, 1, NULL)
  };

  const ai_buffer_array map_activations = 
    AI_BUFFER_ARRAY_OBJ_INIT(AI_FLAG_NONE, AI_NETWORK2_DATA_ACTIVATIONS_COUNT, s_network2_data_map_activations);
  
  static ai_buffer s_network2_data_map_weights[AI_NETWORK2_DATA_WEIGHTS_COUNT] = {
    AI_BUFFER_OBJ_INIT(AI_BUFFER_FORMAT_U8, 1, 1, 5064, 1, s_network2_weights_array_u64),
    
  };

  const ai_buffer_array map_weights = 
    AI_BUFFER_ARRAY_OBJ_INIT(AI_FLAG_NONE, AI_NETWORK2_DATA_WEIGHTS_COUNT, s_network2_data_map_weights);

  return ai_platform_bind_network_params(network, params, &map_weights, &map_activations);
}


AI_API_DECLARE_END
