/**
  ******************************************************************************
  * @file    network2_data.c
  * @author  AST Embedded Analytics Research Platform
  * @date    Fri Sep 10 14:17:41 2021
  * @brief   AI Tool Automatic Code Generator for Embedded NN computing
  ******************************************************************************
  * @attention
  *
  * Copyright (c) 2021 STMicroelectronics.
  * All rights reserved.
  *
  * This software component is licensed by ST under Ultimate Liberty license
  * SLA0044, the "License"; You may not use this file except in compliance with
  * the License. You may obtain a copy of the License at:
  *                             www.st.com/SLA0044
  *
  ******************************************************************************
  */
#include "network2_data.h"
#include "ai_platform_interface.h"


AI_ALIGNED(32)
const ai_u64 s_network2_weights_array_u64[ 401 ] = {
  0xbfb10603bfc0efd7U, 0xbf5cde6abf8b6278U, 0xbf0b90b8bf3b08b9U, 0xbe0245c6be9af171U,
  0x3e3a19b33bbec76eU, 0x3f1a4ed43ed447deU, 0x3f85faf53f67164bU, 0x3fb48abb3f94a506U,
  0x48338f8888af998bU, 0x887658b6788888a7U, 0xaa888868b8dc8b79U, 0xc98c7b8688b847aaU,
  0x8849a855898788beU, 0x48858859767b858aU, 0x97ab6d88888c6744U, 0x88a279a476878859U,
  0x988988b76954aa89U, 0x983b968a8848b865U, 0x88b669646387886eU, 0x7b89889b58439a89U,
  0xa8569586886197cbU, 0x88a468a3868a884aU, 0x90898874b936ab89U, 0x559a758988367754U,
  0x888cd9364a858856U, 0x6788889857338289U, 0x5953788888a74843U, 0x88467864888988b7U,
  0x6b88885a76648589U, 0x48b97689885bb845U, 0x886e49898b8688b6U, 0xae89889378d58c89U,
  0x3e2cfe89be29be10U, 0xbd445cdf3eba05e3U, 0xbeb5332bbf1d2382U, 0xbf3dd3403f0fadc7U,
  0xbeaf97d93e39e62eU, 0x3e8f800f3e8514e0U, 0xbe4b1a5e3f2b1a4aU, 0x3e6a500f3ea9472eU,
  0x3f18a102beb60528U, 0x3eaeb25e3ea50577U, 0xbf3efd503ef5d001U, 0x3e20d6123e864f72U,
  0x3e9307bd3e49ea7fU, 0x3e93c1c23f0fd469U, 0xbf0c17593ee82407U, 0x3e8d14e73eb1bbf8U,
  0xbf0fd118bf21dfe9U, 0xbed5fcefbef1bfaaU, 0xbe8064d3beb0b148U, 0xbdd08004be2c57a9U,
  0xba78be17bd40fd66U, 0x3de22dba3d42ab46U, 0x3e809ad03e39eb65U, 0x3ecf6cf53eacae84U,
  0x899b889a97a8b77bU, 0x99a997baacb79c8aU, 0x9aab8999a89ba79aU, 0x99b99aaaca98994aU,
  0x85cc389ab98a9c95U, 0x88a8874498a87cbdU, 0x88dc889ab78c9c96U, 0x9ab89956a9978aabU,
  0x88da8999c9769988U, 0x99b89988a9c98dccU, 0x9bab79a9a99c96abU, 0x99b99cbaba98860aU,
  0x88cb6999cc789997U, 0x96b79b65a9bb8bbcU, 0xaa6a9aa8799b87acU, 0x988998dca9789b67U,
  0x78bb889aaa879a88U, 0x7aa9997799b98cdaU, 0x78ab879bab8c9b95U, 0x99a99946a88a89caU,
  0xaa2b9a9849ca97adU, 0x985b96ed7a699875U, 0xab5b8ba87aac86acU, 0x988998dcb97a8b57U,
  0x8879889a8baa9a97U, 0x99899976798b86b8U, 0x99db89b9ca77978aU, 0x89c8aca9bac98c6cU,
  0x9aac7999ac8a87aaU, 0x98b89b99c89b7a7aU, 0x89ad599abc989899U, 0x97a89b9799bb7a9bU,
  0xaab9aa98a788989bU, 0x99a999bbb9a7ac7aU, 0xa957a98968bb9aa8U, 0xa96a9699786997b6U,
  0xaa56aa987aa6969cU, 0x986a99db899ba886U, 0x87d7a78ab786ac86U, 0x9aa99a5679b8a6dbU,
  0xaaa7ba989788979bU, 0x99a999bbaa97ab89U, 0x89b5c86a76aa9b97U, 0xac8ab779999798c8U,
  0x8b69988a7ab5947dU, 0xba8aaadc7dba8767U, 0x998a89a99caa9aa6U, 0xa99a9d67798c8589U,
  0xb955bb9756bba9abU, 0x985a76cc7956d765U, 0x885c589a7db99998U, 0x987a9975698d75b7U,
  0x9866b87978a5ab89U, 0x9a5a97994989b5c7U, 0x885a88aa7cbb9b96U, 0x797a7866897c87e7U,
  0x789a779aab989b96U, 0x99999a6688ab86baU, 0x99d899a9d7859a99U, 0xa9b8ac9989b8a86dU,
  0x99cd7999b78c9899U, 0x97b8999ac9978c5bU, 0xba86bba785aaa69eU, 0x999989edaa76d948U,
  0x9875a89a8ba79a97U, 0x9a7a9977798ba6d7U, 0x7999a8ab88b68b8aU, 0x8e9d9a997ab89699U,
  0x8acc79a9cc84968cU, 0x98c9adca9adb7b8cU, 0x8a6d69998eab99a9U, 0xd889ac88889e7669U,
  0x9886b99986a8aa89U, 0x9a7a979a6987a8b8U, 0x8a6d69a98da7969bU, 0x97999bca9aac7979U,
  0x98db8999b76c9ca5U, 0x98a79756b8878b9bU, 0x899c79999a9a9a98U, 0x98a99a88999a787aU,
  0xa9f9aa98c667999aU, 0xa9c7aaaab9c6ad5cU, 0x9977a99979ab9ba7U, 0x9a7a8a67887aa5a7U,
  0xba87ab9787a5969dU, 0x998999ec8aa8b968U, 0xc947bb9779c5b68dU, 0x977a87ec5b8abaa6U,
  0x9a98aa589a8588a9U, 0xb979d8aa88aa7bc8U, 0xa979aaa876af99aaU, 0x898976aba956a957U,
  0x984b79d968bf9b98U, 0x697a668879689557U, 0xba97bc97868996acU, 0x999997ddb977bf68U,
  0xaaa7ba988599978cU, 0x9a9a96ccaa95bb78U, 0xaaac8b97a98896adU, 0x98a89bddbab98c4aU,
  0x89b9989aba85a97aU, 0x99a89ba84acb9abbU, 0xb985ba978798baa9U, 0x997898aa6878a9c8U,
  0x8a6a79a97cbb99a9U, 0xa97a9a99797c8477U, 0x8a9b89799c887898U, 0xa898b788b8ab5fc9U,
  0xaabaaa98b983958cU, 0x99a9aacbaab99cbaU, 0x886a789a6aac9ca5U, 0xa96a8856687a8487U,
  0x77ac777bad888c94U, 0x9999a94578bc59eaU, 0xa846a97968ba9b97U, 0xa95a85897869a6c6U,
  0x99c899a9ba85999aU, 0x99a8aca979caa79bU, 0x9965b99966aa9b99U, 0x8b7c859a8986b8b6U,
  0x86bb58aadd859987U, 0x87a88c6489bc89ecU, 0x8868789a7babab95U, 0x997a9835787b95b7U,
  0x98d79879c87a9c93U, 0xa9a79846a8a89bdbU, 0xa9cc6aa8da78989aU, 0x95b69ba9b9a99b5dU,
  0x3e8815713e5c3b6eU, 0x3a6e6cd0bc72816aU, 0x3e5cda17bdfd556fU, 0x3e33d5f3be544945U,
  0xbddb37353d5aa881U, 0x3d999853be9ae2a8U, 0x3df23414be87fce5U, 0xbe9868d23d8b74b1U,
  0xbe057d323e8284c5U, 0xbd9b98ba3a08db61U, 0x3e8d6dbd3ded4a40U, 0xbed71144be46fcbaU,
  0xbeb544d83e8dee7cU, 0xbe01ec9cbd1ff57cU, 0x3f261b2abd89abc7U, 0x3e00f6d7bd1c28e4U,
  0x3ed8aadbbd4c7c6aU, 0xbd8c3262beabb23dU, 0xbea056a1bda0f0f4U, 0xbe51052fbd33b407U,
  0x3ded08433e2e1610U, 0x3de668e73de8f5bcU, 0x3dd68d5dbd093707U, 0x3e2b3372bd20abafU,
  0xbd455b62bd774032U, 0x3e527b0e3e5d6523U, 0xbe188d40be7565beU, 0xbdbdf857be8141a9U,
  0xbde4e222be2c7c3eU, 0x3ec05dfa3eec947eU, 0xbeff3a37be9e7440U, 0xbd3ee5c63ec1d844U,
  0xbf7b4f5bbf9138e9U, 0xbf1e01a6bf58b7f1U, 0xbeaf93b2bf0ee594U, 0xbde433d4be4942c6U,
  0x3e765c3e3e0b5731U, 0x3f1414063ec512a7U, 0x3f6038f23f257d51U, 0x3f9449a53f80b868U,
  0x7987877897838854U, 0x9680a66aaa766a78U, 0x8797659699999956U, 0x488b278999a84599U,
  0x86787887586c67abU, 0x587f589555899587U, 0x68688a6965666698U, 0xb664d8766557ba66U,
  0x86787887586c67abU, 0x587f589555899587U, 0x68688a6965666698U, 0xb664d8766557ba66U,
  0x86787887586c67abU, 0x587f589555899587U, 0x68688a6965666698U, 0xb664d8766557ba66U,
  0x86787887586c67abU, 0x587f589555899587U, 0x68688a6965666698U, 0xb664d8766557ba66U,
  0x86787887586c67abU, 0x587f589555899587U, 0x68688a6965666698U, 0xb664d8766557ba66U,
  0x7987877897838854U, 0x9680a66aaa766a78U, 0x8797659699999956U, 0x488b278999a84599U,
  0x7987877897838854U, 0x9680a66aaa766a78U, 0x8797659699999956U, 0x488b278999a84599U,
  0x86787887586c67abU, 0x587f589555899587U, 0x68688a6965666698U, 0xb664d8766557ba66U,
  0x86787887586c67abU, 0x587f589555899587U, 0x68688a6965666698U, 0xb664d8766557ba66U,
  0x7987877897838854U, 0x9680a66aaa766a78U, 0x8797659699999956U, 0x488b278999a84599U,
  0x86787887586c67abU, 0x587f589555899587U, 0x68688a6965666698U, 0xb664d8766557ba66U,
  0x7987877897838854U, 0x9680a66aaa766a78U, 0x8797659699999956U, 0x488b278999a84599U,
  0x86787887586c67abU, 0x587f589555899587U, 0x68688a6965666698U, 0xb664d8766557ba66U,
  0x7987877897838854U, 0x9680a66aaa766a78U, 0x8797659699999956U, 0x488b278999a84599U,
  0x86787887586c67abU, 0x587f589555899587U, 0x68688a6965666698U, 0xb664d8766557ba66U,
  0x7987877897838854U, 0x9680a66aaa766a78U, 0x8797659699999956U, 0x488b278999a84599U,
  0x7987877897838854U, 0x9680a66aaa766a78U, 0x8797659699999956U, 0x488b278999a84599U,
  0x7987877897838854U, 0x9680a66aaa766a78U, 0x8797659699999956U, 0x488b278999a84599U,
  0x86787887586c67abU, 0x587f589555899587U, 0x68688a6965666698U, 0xb664d8766557ba66U,
  0x86787887586c67abU, 0x587f589555899587U, 0x68688a6965666698U, 0xb664d8766557ba66U,
  0x86787887586c67abU, 0x587f589555899587U, 0x68688a6965666698U, 0xb664d8766557ba66U,
  0x7987877897838854U, 0x9680a66aaa766a78U, 0x8797659699999956U, 0x488b278999a84599U,
  0x7987877897838854U, 0x9680a66aaa766a78U, 0x8797659699999956U, 0x488b278999a84599U,
  0x86787887586c67abU, 0x587f589555899587U, 0x68688a6965666698U, 0xb664d8766557ba66U,
  0x7987877897838854U, 0x9680a66aaa766a78U, 0x8797659699999956U, 0x488b278999a84599U,
  0x7987877897838854U, 0x9680a66aaa766a78U, 0x8797659699999956U, 0x488b278999a84599U,
  0x7987877897838854U, 0x9680a66aaa766a78U, 0x8797659699999956U, 0x488b278999a84599U,
  0x86787887586c67abU, 0x587f589555899587U, 0x68688a6965666698U, 0xb664d8766557ba66U,
  0x86787887586c67abU, 0x587f589555899587U, 0x68688a6965666698U, 0xb664d8766557ba66U,
  0x7987877897838854U, 0x9680a66aaa766a78U, 0x8797659699999956U, 0x488b278999a84599U,
  0x7987877897838854U, 0x9680a66aaa766a78U, 0x8797659699999956U, 0x488b278999a84599U,
  0x3d3b1266bd12a146U, 0x3d3b12623d3b1264U, 0x3d3b12693d3b1260U, 0xbd12a149bd12a149U,
  0x3d3b12643d3b1261U, 0x3d3b1266bd12a146U, 0x3d3b1260bd12a149U, 0x3d3b1260bd12a149U,
  0xbd12a148bd12a147U, 0x3d3b125ebd12a149U, 0x3d3b12643d3b1268U, 0xbd12a148bd12a148U,
  0xbd12a1413d3b1264U, 0xbd12a14bbd12a14eU, 0x3d3b12633d3b1265U, 0xbd12a148bd12a149U,
  0x3eda9714bf59f9cdU, 0x3eda97133eda9716U, 0x3eda97143eda9716U, 0xbf59f9cbbf59f9ceU,
  0x3eda97133eda9716U, 0x3eda9712bf59f9ccU, 0x3eda9714bf59f9ceU, 0x3eda9714bf59f9cdU,
  0xbf59f9cdbf59f9cfU, 0x3eda9716bf59f9cdU, 0x3eda97143eda9714U, 0xbf59f9cfbf59f9ceU,
  0xbf59f9cd3eda9714U, 0xbf59f9cdbf59f9ceU, 0x3eda97153eda9714U, 0xbf59f9cdbf59f9cfU,
  0xbf665d0e3ec7e968U, 0xbf665d0ebf665d0dU, 0xbf665d0cbf665d0dU, 0x3ec7e96a3ec7e969U,
  0xbf665d0cbf665d0eU, 0xbf665d0e3ec7e969U, 0xbf665d0e3ec7e96bU, 0xbf665d0e3ec7e96cU,
  0x3ec7e9693ec7e969U, 0xbf665d0c3ec7e96cU, 0xbf665d0dbf665d0eU, 0x3ec7e9683ec7e96dU,
  0x3ec7e967bf665d0eU, 0x3ec7e9693ec7e967U, 0xbf665d0ebf665d0eU, 0x3ec7e96d3ec7e96cU,
  0xbe85d342be5ed15dU,
};



AI_API_DECLARE_BEGIN

/*!
 * @brief Get network weights array pointer as a handle ptr.
 * @ingroup network2_data
 * @return a ai_handle pointer to the weights array
 */
AI_DEPRECATED
AI_API_ENTRY
ai_handle ai_network2_data_weights_get(void)
{
  static const ai_u8* const s_network2_weights_map[1 + 2] = {
    AI_PTR(AI_MAGIC_MARKER),
    AI_PTR(s_network2_weights_array_u64),
    AI_PTR(AI_MAGIC_MARKER)
  };

  return AI_HANDLE_PTR(s_network2_weights_map);

}


/*!
 * @brief Get network params configuration data structure.
 * @ingroup network2_data
 * @return true if a valid configuration is present, false otherwise
 */
AI_API_ENTRY
ai_bool ai_network2_data_params_get(ai_handle network, ai_network_params* params)
{
  if (!(network && params)) return false;
  
  static ai_buffer s_network2_data_map_activations[AI_NETWORK2_DATA_ACTIVATIONS_COUNT] = {
    AI_BUFFER_OBJ_INIT(AI_BUFFER_FORMAT_U8, 1, 1, AI_NETWORK2_DATA_ACTIVATIONS_SIZE, 1, NULL)
  };

  const ai_buffer_array map_activations = 
    AI_BUFFER_ARRAY_OBJ_INIT(AI_FLAG_NONE, AI_NETWORK2_DATA_ACTIVATIONS_COUNT, s_network2_data_map_activations);
  
  static ai_buffer s_network2_data_map_weights[AI_NETWORK2_DATA_WEIGHTS_COUNT] = {
    AI_BUFFER_OBJ_INIT(AI_BUFFER_FORMAT_U8, 1, 1, 3208, 1, s_network2_weights_array_u64),
    
  };

  const ai_buffer_array map_weights = 
    AI_BUFFER_ARRAY_OBJ_INIT(AI_FLAG_NONE, AI_NETWORK2_DATA_WEIGHTS_COUNT, s_network2_data_map_weights);

  return ai_platform_bind_network_params(network, params, &map_weights, &map_activations);
}


AI_API_DECLARE_END
